const unsigned char model_tflite[] PROGMEM = {28, 0, 0, 0, 84, 70, 76, 51, 20, 0, 32, 0, 28, 0, 24, 0, 20, 0, 16, 0, 12, 0, 0, 0, 8, 0, 4, 0, 20, 0, 0, 0, 28, 0, 0, 0, 136, 0, 0, 0, 224, 0, 0, 0, 0, 44, 0, 0, 16, 44, 0, 0, 204, 49, 0, 0, 3, 0, 0, 0, 1, 0, 0, 0, 4, 0, 0, 0, 178, 211, 255, 255, 12, 0, 0, 0, 28, 0, 0, 0, 56, 0, 0, 0, 15, 0, 0, 0, 115, 101, 114, 118, 105, 110, 103, 95, 100, 101, 102, 97, 117, 108, 116, 0, 1, 0, 0, 0, 4, 0, 0, 0, 148, 255, 255, 255, 10, 0, 0, 0, 4, 0, 0, 0, 7, 0, 0, 0, 100, 101, 110, 115, 101, 95, 53, 0, 1, 0, 0, 0, 4, 0, 0, 0, 130, 212, 255, 255, 4, 0, 0, 0, 13, 0, 0, 0, 100, 101, 110, 115, 101, 95, 51, 95, 105, 110, 112, 117, 116, 0, 0, 0, 2, 0, 0, 0, 52, 0, 0, 0, 4, 0, 0, 0, 220, 255, 255, 255, 13, 0, 0, 0, 4, 0, 0, 0, 19, 0, 0, 0, 67, 79, 78, 86, 69, 82, 83, 73, 79, 78, 95, 77, 69, 84, 65, 68, 65, 84, 65, 0, 8, 0, 12, 0, 8, 0, 4, 0, 8, 0, 0, 0, 12, 0, 0, 0, 4, 0, 0, 0, 19, 0, 0, 0, 109, 105, 110, 95, 114, 117, 110, 116, 105, 109, 101, 95, 118, 101, 114, 115, 105, 111, 110, 0, 14, 0, 0, 0, 28, 43, 0, 0, 20, 43, 0, 0, 0, 43, 0, 0, 104, 42, 0, 0, 88, 41, 0, 0, 72, 33, 0, 0, 56, 1, 0, 0, 168, 0, 0, 0, 160, 0, 0, 0, 152, 0, 0, 0, 144, 0, 0, 0, 136, 0, 0, 0, 104, 0, 0, 0, 4, 0, 0, 0, 54, 213, 255, 255, 4, 0, 0, 0, 84, 0, 0, 0, 12, 0, 0, 0, 8, 0, 14, 0, 8, 0, 4, 0, 8, 0, 0, 0, 16, 0, 0, 0, 36, 0, 0, 0, 0, 0, 6, 0, 8, 0, 4, 0, 6, 0, 0, 0, 4, 0, 0, 0, 0, 0, 0, 0, 0, 0, 10, 0, 16, 0, 12, 0, 8, 0, 4, 0, 10, 0, 0, 0, 2, 0, 0, 0, 2, 0, 0, 0, 4, 0, 0, 0, 6, 0, 0, 0, 50, 46, 49, 50, 46, 48, 0, 0, 150, 213, 255, 255, 4, 0, 0, 0, 16, 0, 0, 0, 49, 46, 49, 52, 46, 48, 0, 0, 0, 0, 0, 0, 0, 0, 0, 0, 248, 207, 255, 255, 252, 207, 255, 255, 0, 208, 255, 255, 4, 208, 255, 255, 194, 213, 255, 255, 4, 0, 0, 0, 128, 0, 0, 0, 196, 223, 221, 62, 171, 218, 52, 62, 232, 58, 134, 190, 9, 168, 86, 62, 241, 224, 72, 190, 114, 197, 236, 190, 118, 82, 56, 191, 63, 141, 20, 63, 105, 95, 93, 190, 23, 15, 27, 191, 15, 206, 230, 189, 30, 244, 170, 190, 54, 207, 228, 190, 30, 55, 176, 62, 184, 157, 210, 189, 18, 195, 34, 61, 9, 18, 221, 190, 120, 249, 134, 62, 201, 208, 134, 190, 37, 120, 196, 190, 88, 165, 154, 190, 104, 72, 33, 191, 0, 148, 239, 62, 222, 44, 217, 62, 133, 152, 28, 63, 236, 169, 77, 190, 110, 145, 182, 62, 249, 120, 232, 62, 28, 69, 200, 190, 191, 87, 245, 62, 230, 156, 72, 190, 75, 164, 249, 62, 78, 214, 255, 255, 4, 0, 0, 0, 0, 32, 0, 0, 19, 199, 35, 62, 79, 162, 91, 62, 41, 10, 35, 62, 242, 49, 22, 190, 128, 156, 138, 188, 3, 74, 215, 59, 164, 5, 2, 62, 221, 129, 4, 190, 38, 118, 119, 190, 128, 10, 90, 190, 129, 17, 210, 61, 59, 175, 36, 190, 52, 94, 95, 61, 241, 101, 246, 188, 43, 166, 187, 60, 157, 109, 46, 62, 74, 72, 106, 62, 153, 254, 237, 60, 172, 118, 64, 190, 203, 59, 146, 190, 187, 207, 224, 190, 188, 74, 71, 62, 203, 208, 77, 60, 166, 107, 160, 190, 22, 196, 239, 62, 129, 90, 158, 189, 181, 6, 0, 62, 146, 196, 30, 190, 195, 96, 146, 62, 236, 10, 138, 59, 37, 8, 103, 62, 44, 33, 98, 190, 218, 198, 54, 190, 12, 177, 180, 61, 185, 106, 148, 62, 201, 223, 197, 189, 135, 29, 56, 62, 54, 209, 136, 61, 9, 11, 231, 189, 188, 52, 24, 62, 48, 72, 140, 62, 116, 172, 98, 189, 53, 21, 182, 60, 190, 145, 153, 60, 38, 169, 203, 61, 116, 102, 188, 61, 224, 58, 14, 63, 150, 82, 58, 62, 88, 86, 156, 61, 132, 254, 218, 62, 75, 142, 195, 189, 124, 36, 62, 190, 55, 60, 37, 62, 61, 1, 226, 62, 213, 32, 18, 62, 49, 100, 9, 62, 158, 190, 168, 190, 223, 114, 138, 62, 181, 80, 171, 61, 183, 252, 129, 62, 14, 164, 246, 62, 127, 171, 251, 188, 168, 69, 108, 190, 16, 39, 216, 189, 33, 39, 56, 190, 40, 177, 87, 62, 55, 220, 104, 190, 215, 152, 213, 189, 180, 94, 0, 62, 159, 80, 52, 62, 185, 9, 120, 190, 61, 54, 59, 62, 49, 194, 109, 189, 63, 158, 18, 62, 95, 208, 207, 62, 86, 86, 82, 190, 103, 247, 228, 189, 22, 208, 123, 61, 152, 53, 93, 62, 247, 21, 95, 189, 83, 93, 84, 62, 27, 61, 129, 62, 108, 235, 204, 189, 121, 98, 227, 189, 219, 208, 142, 189, 95, 248, 198, 61, 160, 180, 21, 189, 234, 181, 234, 61, 13, 223, 85, 62, 186, 81, 10, 187, 185, 140, 29, 62, 33, 59, 52, 62, 154, 155, 178, 62, 234, 238, 118, 61, 61, 116, 1, 62, 221, 204, 128, 188, 250, 213, 218, 61, 180, 206, 145, 61, 215, 234, 231, 61, 251, 147, 190, 190, 105, 249, 202, 188, 30, 219, 37, 61, 129, 47, 212, 190, 60, 172, 252, 189, 6, 133, 182, 188, 135, 54, 169, 61, 231, 41, 77, 62, 162, 122, 130, 62, 145, 190, 137, 62, 254, 177, 112, 61, 23, 57, 221, 62, 115, 89, 24, 61, 175, 211, 157, 62, 86, 57, 148, 62, 86, 244, 84, 190, 163, 136, 16, 188, 77, 4, 53, 190, 110, 180, 53, 62, 65, 251, 70, 190, 254, 216, 91, 62, 230, 1, 191, 190, 28, 225, 16, 190, 170, 20, 228, 189, 133, 191, 92, 62, 163, 173, 38, 62, 196, 140, 139, 190, 245, 174, 206, 61, 129, 151, 128, 190, 228, 5, 46, 62, 160, 105, 27, 190, 192, 62, 93, 61, 228, 63, 53, 190, 8, 142, 164, 61, 92, 181, 34, 62, 104, 33, 197, 189, 32, 247, 190, 189, 252, 86, 33, 62, 244, 195, 18, 190, 116, 96, 103, 62, 52, 115, 42, 190, 160, 47, 110, 190, 208, 106, 57, 190, 48, 33, 207, 189, 16, 15, 86, 61, 32, 119, 92, 190, 80, 113, 110, 190, 56, 82, 106, 190, 80, 126, 21, 62, 176, 99, 56, 61, 112, 224, 217, 61, 208, 52, 190, 61, 192, 73, 92, 189, 248, 20, 119, 190, 84, 215, 61, 190, 112, 161, 177, 189, 52, 33, 88, 190, 196, 52, 68, 62, 128, 114, 38, 60, 64, 202, 29, 61, 224, 37, 243, 60, 184, 197, 25, 190, 48, 122, 125, 61, 160, 96, 104, 189, 48, 143, 81, 190, 244, 124, 112, 62, 112, 184, 101, 189, 192, 214, 154, 61, 84, 71, 39, 190, 8, 61, 234, 189, 228, 236, 84, 190, 32, 156, 151, 61, 176, 156, 93, 61, 244, 103, 63, 190, 180, 154, 84, 62, 36, 103, 98, 190, 120, 36, 213, 61, 192, 62, 142, 188, 92, 245, 70, 62, 168, 204, 255, 189, 120, 43, 65, 62, 96, 188, 203, 60, 232, 244, 4, 190, 224, 96, 85, 61, 60, 88, 95, 190, 12, 205, 89, 190, 72, 81, 93, 190, 72, 56, 145, 61, 168, 127, 24, 62, 184, 133, 205, 61, 56, 90, 128, 61, 60, 15, 114, 190, 116, 233, 68, 62, 87, 39, 67, 190, 66, 119, 212, 61, 178, 149, 5, 61, 238, 185, 132, 190, 29, 50, 158, 61, 141, 250, 209, 59, 89, 12, 27, 189, 25, 161, 120, 62, 70, 96, 162, 61, 243, 199, 70, 187, 8, 39, 227, 61, 252, 155, 58, 190, 23, 225, 137, 190, 206, 123, 38, 190, 98, 210, 39, 62, 236, 229, 136, 189, 149, 15, 152, 189, 251, 44, 75, 190, 19, 202, 71, 62, 233, 39, 164, 189, 155, 87, 55, 62, 192, 131, 238, 189, 222, 79, 229, 189, 179, 144, 52, 190, 212, 178, 63, 190, 104, 135, 206, 61, 178, 156, 178, 188, 245, 102, 131, 62, 250, 113, 42, 190, 207, 108, 253, 189, 3, 45, 88, 61, 185, 217, 21, 62, 155, 68, 240, 189, 165, 109, 179, 61, 23, 166, 172, 189, 176, 252, 124, 190, 158, 195, 60, 190, 166, 152, 146, 189, 80, 187, 21, 62, 44, 42, 112, 62, 138, 2, 59, 190, 194, 117, 13, 59, 193, 116, 41, 190, 229, 17, 14, 60, 92, 25, 38, 62, 104, 244, 109, 61, 48, 75, 71, 62, 211, 84, 18, 190, 252, 201, 67, 190, 118, 159, 37, 190, 197, 2, 47, 62, 28, 193, 66, 62, 2, 27, 2, 62, 236, 131, 53, 60, 30, 245, 228, 188, 112, 155, 48, 190, 201, 145, 252, 61, 56, 232, 73, 190, 122, 102, 163, 189, 111, 56, 24, 62, 176, 29, 178, 189, 221, 32, 246, 61, 155, 90, 82, 62, 182, 35, 40, 62, 14, 121, 199, 189, 84, 218, 224, 189, 219, 247, 170, 62, 196, 151, 198, 188, 237, 98, 99, 190, 154, 135, 45, 62, 137, 43, 28, 62, 10, 65, 9, 61, 77, 78, 163, 62, 153, 159, 67, 62, 30, 90, 95, 190, 53, 175, 182, 61, 81, 54, 229, 188, 158, 136, 229, 188, 56, 155, 181, 189, 19, 98, 22, 62, 125, 217, 57, 190, 92, 152, 121, 189, 64, 44, 177, 62, 147, 109, 77, 62, 67, 196, 33, 62, 227, 167, 3, 189, 57, 201, 43, 190, 176, 180, 158, 62, 170, 132, 72, 190, 12, 169, 42, 62, 92, 249, 21, 189, 250, 238, 240, 58, 207, 215, 177, 190, 177, 36, 104, 62, 114, 163, 3, 62, 162, 80, 198, 61, 15, 154, 84, 62, 208, 150, 38, 62, 229, 161, 34, 190, 40, 32, 145, 62, 196, 24, 76, 61, 240, 190, 34, 62, 46, 244, 62, 62, 17, 23, 85, 190, 110, 87, 93, 190, 235, 82, 5, 62, 125, 61, 13, 190, 140, 214, 110, 190, 80, 97, 30, 62, 149, 134, 188, 61, 13, 252, 15, 190, 14, 137, 2, 190, 147, 241, 148, 58, 88, 238, 112, 190, 237, 206, 108, 190, 49, 2, 53, 62, 127, 212, 17, 190, 38, 24, 185, 190, 8, 194, 63, 62, 62, 187, 25, 189, 66, 119, 148, 189, 168, 9, 170, 61, 154, 32, 44, 62, 31, 19, 0, 190, 251, 127, 62, 190, 172, 246, 0, 187, 34, 209, 21, 190, 177, 54, 147, 62, 19, 14, 162, 62, 49, 172, 229, 189, 206, 96, 67, 190, 161, 10, 44, 190, 170, 194, 77, 189, 170, 133, 140, 62, 89, 135, 34, 190, 189, 3, 53, 190, 163, 217, 128, 62, 56, 0, 177, 189, 218, 98, 67, 189, 241, 66, 120, 61, 101, 225, 151, 61, 252, 19, 0, 61, 207, 64, 167, 189, 67, 77, 69, 189, 204, 129, 18, 61, 93, 35, 27, 188, 196, 36, 161, 62, 53, 248, 136, 62, 237, 200, 235, 62, 6, 49, 2, 190, 221, 126, 156, 190, 184, 12, 152, 62, 77, 130, 22, 190, 97, 144, 75, 62, 194, 217, 32, 190, 187, 147, 129, 190, 3, 133, 23, 190, 71, 162, 240, 61, 4, 178, 43, 62, 134, 159, 4, 189, 106, 61, 219, 61, 201, 116, 226, 188, 71, 162, 175, 189, 238, 73, 224, 62, 205, 209, 249, 189, 237, 94, 138, 62, 148, 236, 248, 62, 186, 173, 155, 61, 181, 124, 10, 190, 163, 95, 31, 62, 242, 89, 59, 62, 69, 22, 88, 190, 223, 97, 85, 62, 52, 179, 70, 62, 248, 20, 247, 190, 107, 52, 20, 62, 130, 144, 146, 60, 137, 78, 165, 190, 39, 228, 214, 61, 172, 139, 51, 62, 105, 9, 4, 188, 110, 58, 99, 190, 228, 224, 75, 61, 36, 212, 79, 62, 202, 87, 101, 62, 77, 27, 139, 61, 207, 137, 192, 61, 195, 183, 219, 189, 43, 231, 33, 190, 23, 190, 135, 62, 38, 99, 229, 189, 233, 160, 176, 62, 102, 65, 31, 62, 18, 147, 225, 188, 171, 252, 140, 62, 13, 30, 13, 61, 46, 70, 135, 190, 81, 192, 160, 62, 110, 23, 72, 62, 106, 28, 7, 190, 20, 61, 148, 61, 237, 134, 224, 62, 41, 203, 110, 61, 79, 255, 207, 62, 43, 191, 220, 62, 238, 50, 17, 59, 23, 64, 37, 190, 78, 206, 190, 61, 71, 234, 60, 190, 40, 143, 128, 190, 35, 37, 108, 60, 14, 180, 118, 189, 24, 20, 216, 62, 219, 207, 43, 62, 217, 129, 190, 61, 24, 193, 47, 190, 50, 191, 182, 190, 59, 248, 131, 62, 43, 16, 167, 189, 121, 124, 47, 189, 206, 178, 43, 190, 20, 204, 24, 190, 134, 243, 121, 190, 31, 15, 210, 190, 46, 61, 164, 62, 142, 241, 133, 190, 113, 190, 24, 190, 97, 91, 216, 62, 1, 97, 5, 187, 48, 153, 53, 190, 38, 6, 211, 62, 63, 191, 16, 61, 127, 135, 238, 189, 156, 206, 65, 62, 133, 87, 77, 190, 92, 74, 66, 62, 26, 192, 126, 62, 96, 112, 180, 62, 41, 158, 227, 190, 244, 42, 236, 61, 192, 87, 36, 190, 97, 123, 243, 189, 154, 210, 96, 190, 211, 79, 112, 62, 70, 151, 33, 190, 22, 114, 57, 190, 57, 47, 135, 188, 87, 173, 156, 62, 18, 231, 129, 190, 20, 157, 60, 62, 191, 251, 104, 190, 217, 181, 201, 189, 198, 93, 214, 190, 126, 168, 140, 190, 7, 71, 138, 189, 83, 86, 176, 60, 137, 194, 20, 61, 214, 137, 122, 190, 96, 17, 43, 61, 81, 132, 239, 189, 170, 76, 133, 187, 11, 200, 162, 190, 178, 249, 192, 190, 242, 42, 76, 190, 119, 106, 156, 61, 159, 49, 69, 189, 234, 245, 98, 62, 38, 215, 60, 190, 96, 157, 37, 188, 248, 254, 30, 190, 196, 220, 28, 190, 198, 50, 155, 62, 143, 36, 139, 62, 188, 6, 138, 62, 175, 122, 2, 189, 240, 173, 20, 190, 31, 177, 184, 189, 230, 37, 100, 190, 12, 192, 182, 61, 108, 136, 201, 61, 144, 168, 194, 62, 220, 2, 171, 189, 29, 73, 142, 188, 112, 171, 139, 62, 216, 44, 206, 189, 147, 92, 36, 189, 160, 186, 25, 62, 21, 213, 167, 62, 111, 34, 208, 57, 99, 11, 155, 189, 230, 1, 29, 188, 151, 210, 78, 190, 79, 115, 41, 188, 150, 57, 12, 190, 64, 221, 77, 189, 66, 191, 136, 189, 30, 74, 58, 62, 23, 148, 145, 190, 53, 58, 202, 60, 0, 2, 225, 188, 89, 49, 48, 61, 76, 75, 237, 189, 150, 163, 14, 62, 117, 28, 149, 188, 236, 98, 197, 62, 251, 65, 237, 61, 64, 209, 229, 61, 76, 182, 129, 189, 31, 145, 207, 61, 58, 120, 0, 63, 181, 102, 41, 62, 132, 1, 62, 189, 153, 218, 142, 190, 168, 245, 183, 189, 197, 186, 229, 59, 7, 26, 45, 62, 98, 10, 50, 62, 149, 213, 139, 190, 120, 197, 89, 61, 171, 249, 251, 61, 109, 117, 59, 62, 106, 230, 2, 61, 223, 113, 139, 62, 241, 114, 142, 60, 16, 223, 162, 190, 8, 122, 132, 62, 245, 35, 93, 190, 94, 168, 13, 189, 216, 50, 106, 60, 75, 222, 138, 62, 108, 187, 234, 189, 51, 66, 147, 61, 137, 140, 51, 62, 151, 139, 163, 190, 148, 121, 206, 189, 63, 86, 190, 61, 176, 142, 91, 61, 216, 251, 178, 189, 98, 73, 197, 62, 60, 61, 140, 188, 147, 25, 190, 61, 112, 89, 154, 61, 98, 154, 72, 61, 239, 198, 73, 61, 205, 65, 6, 189, 177, 171, 98, 189, 23, 97, 147, 62, 139, 165, 105, 190, 39, 113, 5, 190, 45, 165, 45, 62, 101, 40, 147, 61, 91, 23, 0, 62, 121, 91, 129, 62, 255, 127, 59, 190, 77, 121, 140, 190, 232, 152, 57, 62, 142, 159, 148, 190, 178, 165, 56, 62, 76, 78, 127, 62, 146, 187, 81, 62, 203, 172, 37, 189, 218, 194, 129, 62, 67, 5, 164, 189, 104, 37, 93, 189, 135, 43, 56, 62, 243, 252, 6, 61, 200, 95, 72, 190, 185, 189, 13, 62, 124, 48, 217, 189, 118, 184, 170, 190, 126, 68, 56, 190, 33, 123, 234, 61, 170, 20, 75, 190, 42, 2, 212, 190, 230, 24, 92, 60, 238, 146, 134, 189, 139, 172, 192, 61, 143, 205, 86, 190, 69, 21, 251, 188, 12, 60, 27, 60, 118, 104, 150, 190, 197, 65, 18, 62, 162, 140, 147, 62, 37, 250, 148, 62, 211, 179, 129, 62, 121, 208, 96, 190, 1, 124, 253, 59, 122, 233, 112, 189, 63, 31, 43, 62, 207, 7, 174, 61, 48, 29, 32, 190, 174, 202, 158, 62, 26, 243, 115, 62, 73, 246, 56, 62, 196, 37, 107, 190, 149, 180, 253, 190, 59, 253, 33, 62, 223, 249, 101, 190, 33, 43, 161, 190, 173, 30, 39, 190, 146, 235, 102, 62, 209, 187, 194, 61, 153, 220, 17, 61, 13, 45, 139, 62, 183, 108, 12, 62, 239, 220, 188, 61, 20, 5, 168, 190, 227, 128, 27, 62, 35, 246, 176, 189, 139, 251, 54, 190, 217, 0, 157, 60, 155, 153, 91, 190, 157, 137, 56, 190, 99, 71, 0, 62, 247, 46, 112, 189, 103, 14, 5, 63, 204, 209, 152, 190, 127, 173, 60, 190, 74, 255, 234, 189, 3, 255, 249, 189, 249, 151, 5, 61, 26, 60, 102, 60, 75, 110, 136, 61, 133, 228, 143, 189, 169, 253, 3, 190, 171, 219, 131, 190, 36, 65, 15, 62, 3, 199, 221, 61, 238, 212, 233, 188, 32, 125, 218, 61, 157, 25, 156, 190, 51, 195, 55, 190, 66, 105, 196, 189, 96, 158, 234, 189, 4, 233, 113, 62, 30, 5, 1, 190, 92, 145, 191, 61, 44, 79, 135, 190, 209, 193, 20, 189, 169, 192, 149, 61, 180, 57, 146, 62, 139, 133, 22, 61, 97, 110, 229, 187, 174, 184, 114, 189, 76, 192, 77, 190, 207, 178, 134, 61, 91, 2, 146, 61, 86, 209, 55, 190, 131, 43, 231, 61, 195, 234, 119, 62, 18, 122, 145, 189, 198, 45, 197, 61, 197, 29, 3, 62, 238, 136, 48, 189, 187, 154, 44, 190, 145, 38, 144, 62, 159, 10, 10, 61, 134, 63, 31, 190, 193, 162, 196, 61, 40, 1, 0, 190, 175, 240, 3, 61, 232, 64, 122, 190, 85, 145, 15, 62, 198, 84, 163, 190, 56, 186, 139, 189, 208, 23, 168, 188, 175, 97, 52, 190, 135, 172, 150, 61, 30, 13, 10, 62, 1, 8, 230, 61, 174, 109, 37, 62, 53, 34, 145, 62, 61, 33, 168, 190, 115, 15, 0, 62, 108, 103, 60, 190, 78, 86, 40, 62, 193, 176, 75, 190, 232, 118, 140, 61, 207, 54, 164, 189, 212, 149, 207, 62, 220, 0, 170, 190, 245, 222, 233, 189, 88, 166, 100, 188, 2, 156, 227, 189, 239, 226, 90, 190, 205, 103, 176, 62, 75, 59, 106, 62, 147, 196, 128, 62, 125, 62, 126, 190, 232, 76, 38, 190, 208, 67, 216, 189, 245, 65, 36, 190, 122, 170, 117, 61, 208, 132, 14, 188, 4, 165, 148, 61, 114, 25, 147, 61, 228, 32, 249, 189, 134, 214, 201, 190, 65, 57, 31, 62, 124, 0, 107, 62, 116, 175, 148, 189, 230, 1, 159, 188, 107, 199, 78, 190, 156, 222, 91, 62, 82, 107, 15, 62, 205, 240, 56, 190, 214, 199, 131, 62, 51, 28, 33, 61, 44, 239, 14, 190, 72, 74, 61, 62, 60, 184, 74, 61, 36, 57, 187, 189, 224, 6, 151, 62, 153, 32, 59, 190, 4, 189, 162, 189, 36, 188, 121, 189, 218, 75, 160, 60, 244, 63, 12, 62, 193, 250, 33, 62, 13, 180, 178, 190, 224, 83, 138, 189, 100, 177, 43, 62, 38, 12, 32, 62, 14, 52, 253, 62, 181, 102, 67, 62, 172, 218, 130, 187, 213, 63, 12, 62, 98, 187, 10, 190, 203, 148, 141, 189, 40, 29, 93, 190, 105, 142, 59, 62, 239, 91, 76, 61, 145, 44, 163, 61, 241, 183, 25, 62, 58, 147, 8, 190, 61, 167, 214, 61, 167, 69, 219, 61, 72, 140, 18, 62, 250, 76, 240, 61, 139, 133, 100, 190, 97, 203, 215, 61, 255, 208, 155, 189, 221, 29, 52, 190, 168, 7, 175, 189, 226, 63, 100, 188, 63, 203, 2, 190, 228, 44, 211, 190, 211, 179, 46, 61, 66, 231, 49, 62, 234, 189, 141, 190, 132, 39, 196, 62, 85, 238, 158, 61, 153, 2, 176, 190, 166, 181, 178, 62, 241, 190, 212, 61, 203, 10, 33, 62, 83, 227, 216, 187, 161, 124, 121, 62, 250, 38, 221, 190, 236, 95, 30, 190, 149, 221, 65, 61, 99, 122, 90, 190, 213, 125, 31, 62, 165, 228, 87, 62, 249, 139, 175, 61, 211, 204, 188, 190, 102, 162, 123, 60, 175, 107, 193, 188, 189, 9, 101, 190, 163, 29, 34, 190, 153, 212, 204, 60, 64, 172, 167, 189, 138, 124, 84, 190, 24, 16, 252, 61, 228, 10, 223, 189, 54, 79, 143, 188, 205, 41, 134, 62, 133, 128, 74, 62, 221, 20, 77, 62, 83, 107, 173, 62, 220, 89, 148, 61, 239, 130, 111, 62, 240, 192, 145, 60, 145, 118, 235, 189, 123, 211, 102, 62, 164, 198, 146, 62, 8, 193, 210, 61, 48, 22, 225, 62, 119, 153, 196, 62, 59, 57, 183, 189, 110, 82, 107, 62, 83, 126, 31, 62, 164, 113, 107, 60, 17, 252, 93, 190, 58, 9, 94, 61, 76, 134, 195, 190, 101, 71, 151, 61, 146, 138, 99, 190, 22, 222, 168, 189, 112, 77, 37, 190, 160, 127, 97, 190, 48, 207, 22, 62, 47, 1, 254, 60, 86, 110, 77, 190, 54, 243, 158, 189, 251, 241, 172, 190, 189, 35, 20, 190, 178, 77, 2, 190, 67, 127, 110, 62, 23, 64, 132, 188, 239, 206, 175, 190, 118, 99, 189, 62, 117, 109, 23, 189, 229, 37, 187, 190, 217, 212, 3, 63, 17, 57, 133, 62, 85, 242, 219, 190, 150, 60, 105, 62, 117, 5, 178, 188, 243, 85, 68, 190, 95, 225, 77, 189, 208, 163, 229, 62, 234, 26, 10, 191, 250, 155, 31, 190, 126, 239, 211, 60, 156, 155, 95, 189, 36, 97, 51, 62, 55, 34, 177, 61, 157, 142, 163, 190, 198, 110, 177, 190, 145, 70, 164, 189, 248, 235, 129, 189, 211, 112, 142, 190, 219, 229, 67, 60, 31, 248, 64, 190, 112, 45, 140, 189, 9, 186, 211, 190, 153, 110, 136, 189, 153, 43, 29, 190, 165, 71, 242, 61, 181, 104, 144, 190, 127, 139, 173, 60, 24, 231, 27, 62, 40, 45, 50, 189, 208, 13, 55, 62, 77, 142, 215, 189, 166, 60, 102, 189, 3, 177, 116, 189, 94, 214, 148, 190, 30, 42, 14, 62, 42, 52, 5, 61, 170, 119, 134, 189, 20, 98, 133, 186, 227, 51, 111, 189, 201, 55, 42, 62, 3, 76, 3, 61, 217, 85, 78, 62, 43, 223, 69, 62, 101, 162, 23, 190, 67, 244, 140, 190, 249, 72, 194, 189, 244, 64, 144, 62, 3, 98, 45, 62, 75, 126, 13, 189, 151, 150, 169, 61, 227, 164, 16, 189, 192, 173, 30, 190, 143, 178, 9, 190, 144, 49, 113, 188, 0, 22, 207, 59, 229, 101, 71, 61, 50, 167, 14, 60, 190, 54, 9, 62, 117, 176, 40, 62, 68, 150, 143, 61, 100, 97, 215, 189, 62, 167, 192, 62, 153, 2, 94, 190, 40, 162, 88, 190, 237, 108, 1, 190, 60, 95, 124, 62, 85, 93, 144, 190, 167, 2, 125, 62, 14, 250, 209, 60, 163, 167, 47, 61, 87, 118, 152, 61, 227, 139, 7, 63, 85, 38, 172, 62, 97, 215, 189, 62, 47, 73, 0, 63, 100, 199, 53, 190, 7, 176, 85, 62, 27, 68, 163, 62, 200, 97, 142, 62, 76, 71, 109, 190, 153, 120, 159, 60, 178, 114, 161, 190, 189, 189, 2, 189, 137, 134, 141, 62, 10, 86, 92, 62, 236, 57, 153, 62, 95, 40, 150, 60, 148, 9, 182, 189, 163, 242, 245, 61, 32, 2, 227, 188, 32, 40, 196, 188, 232, 118, 149, 189, 64, 78, 61, 61, 0, 223, 50, 189, 244, 226, 38, 62, 192, 209, 68, 60, 192, 194, 253, 189, 160, 75, 55, 61, 52, 188, 27, 190, 112, 8, 69, 62, 48, 203, 70, 189, 208, 134, 29, 62, 64, 37, 254, 188, 80, 15, 15, 190, 168, 140, 20, 190, 48, 35, 170, 189, 200, 158, 143, 189, 0, 28, 117, 188, 56, 189, 163, 61, 232, 231, 143, 61, 160, 226, 120, 189, 160, 21, 119, 190, 184, 112, 114, 190, 64, 81, 63, 60, 32, 165, 43, 61, 56, 202, 196, 189, 120, 57, 245, 61, 208, 213, 94, 61, 32, 194, 194, 189, 188, 18, 3, 190, 228, 21, 58, 62, 224, 95, 2, 61, 8, 69, 218, 189, 144, 124, 34, 61, 188, 13, 118, 62, 84, 35, 5, 190, 64, 197, 182, 189, 12, 25, 27, 62, 80, 46, 35, 61, 20, 130, 68, 190, 88, 103, 151, 61, 228, 90, 56, 190, 240, 79, 112, 62, 192, 85, 163, 60, 12, 116, 70, 190, 8, 186, 146, 61, 196, 112, 91, 62, 188, 228, 53, 62, 232, 87, 10, 62, 128, 81, 159, 61, 64, 19, 117, 188, 224, 191, 50, 62, 104, 5, 251, 189, 240, 111, 230, 61, 132, 98, 30, 190, 88, 15, 14, 190, 212, 26, 50, 190, 20, 53, 49, 190, 200, 107, 39, 190, 192, 240, 67, 61, 32, 207, 79, 62, 32, 47, 226, 188, 128, 68, 82, 190, 159, 9, 30, 190, 252, 10, 0, 190, 98, 97, 235, 189, 91, 185, 87, 189, 16, 255, 103, 190, 239, 207, 113, 190, 84, 15, 23, 190, 222, 204, 248, 189, 104, 206, 122, 62, 251, 29, 68, 61, 116, 67, 53, 61, 34, 98, 111, 190, 127, 80, 75, 189, 23, 221, 3, 62, 86, 218, 55, 189, 139, 170, 147, 189, 14, 69, 63, 190, 15, 158, 29, 62, 82, 167, 87, 62, 56, 191, 226, 189, 120, 104, 224, 61, 203, 255, 100, 62, 228, 163, 178, 189, 32, 99, 38, 62, 12, 201, 73, 190, 16, 67, 94, 62, 168, 112, 130, 189, 236, 249, 124, 190, 175, 112, 116, 187, 63, 124, 128, 189, 166, 175, 131, 190, 244, 93, 63, 62, 222, 210, 62, 190, 0, 216, 182, 59, 28, 235, 63, 62, 140, 208, 106, 62, 142, 15, 171, 188, 120, 221, 226, 61, 189, 114, 77, 62, 63, 156, 153, 61, 136, 63, 148, 189, 126, 14, 245, 189, 4, 137, 22, 190, 204, 10, 48, 62, 129, 231, 136, 61, 167, 44, 242, 60, 209, 109, 97, 190, 108, 215, 124, 62, 200, 243, 32, 190, 144, 229, 250, 189, 79, 118, 103, 190, 233, 251, 117, 189, 136, 136, 166, 61, 189, 89, 205, 61, 164, 143, 31, 62, 236, 137, 162, 188, 100, 140, 93, 62, 232, 205, 144, 61, 203, 101, 119, 190, 98, 114, 3, 62, 232, 81, 38, 190, 76, 175, 99, 190, 0, 79, 64, 187, 112, 108, 12, 190, 39, 105, 47, 62, 10, 19, 37, 190, 97, 152, 56, 62, 49, 95, 206, 189, 138, 81, 219, 61, 30, 134, 117, 189, 136, 71, 13, 62, 88, 34, 14, 62, 252, 211, 31, 62, 17, 6, 214, 61, 243, 67, 178, 189, 232, 128, 159, 190, 125, 28, 32, 190, 225, 129, 62, 61, 222, 160, 212, 189, 24, 17, 158, 61, 231, 134, 67, 62, 102, 93, 171, 189, 8, 99, 144, 190, 160, 5, 40, 62, 180, 144, 49, 190, 211, 47, 116, 190, 242, 215, 53, 190, 97, 39, 82, 62, 16, 192, 132, 190, 149, 189, 166, 190, 133, 56, 224, 61, 167, 80, 105, 61, 157, 133, 51, 62, 103, 199, 159, 62, 185, 221, 255, 189, 59, 204, 22, 62, 47, 186, 138, 190, 238, 161, 115, 62, 85, 236, 128, 189, 210, 75, 37, 62, 42, 251, 53, 190, 145, 237, 189, 62, 158, 129, 132, 62, 204, 215, 178, 61, 38, 33, 131, 190, 91, 31, 47, 190, 106, 202, 22, 62, 53, 115, 121, 190, 42, 63, 14, 190, 210, 74, 191, 190, 199, 103, 181, 188, 213, 214, 33, 190, 227, 95, 111, 187, 44, 180, 199, 190, 13, 60, 45, 62, 61, 141, 113, 190, 43, 110, 241, 189, 193, 34, 35, 61, 193, 89, 49, 62, 155, 124, 169, 61, 72, 195, 173, 60, 206, 1, 241, 61, 214, 242, 78, 62, 119, 32, 254, 188, 12, 244, 221, 190, 191, 8, 72, 62, 100, 172, 192, 61, 228, 232, 11, 190, 0, 243, 85, 190, 144, 174, 109, 189, 68, 52, 101, 62, 240, 88, 112, 189, 200, 140, 254, 189, 44, 58, 87, 190, 204, 250, 41, 62, 44, 155, 125, 190, 0, 103, 146, 187, 160, 232, 242, 60, 176, 131, 110, 190, 128, 87, 143, 60, 112, 40, 244, 189, 40, 7, 116, 190, 0, 122, 98, 61, 0, 9, 45, 190, 160, 218, 96, 189, 148, 149, 68, 190, 96, 179, 127, 190, 156, 139, 75, 190, 224, 113, 165, 188, 0, 164, 237, 187, 208, 235, 210, 61, 240, 88, 106, 61, 104, 0, 77, 62, 24, 59, 21, 62, 80, 100, 37, 190, 176, 169, 100, 61, 104, 187, 136, 189, 228, 19, 0, 62, 0, 255, 89, 59, 128, 70, 149, 61, 144, 180, 165, 189, 0, 74, 7, 190, 184, 148, 21, 190, 168, 193, 144, 61, 128, 54, 179, 189, 0, 141, 217, 59, 212, 136, 39, 190, 192, 187, 252, 189, 60, 248, 49, 190, 8, 44, 137, 189, 200, 45, 112, 190, 160, 54, 210, 189, 16, 55, 242, 61, 160, 90, 21, 190, 12, 139, 22, 190, 196, 138, 50, 62, 128, 106, 229, 60, 96, 121, 22, 62, 24, 8, 34, 190, 124, 170, 75, 62, 224, 122, 240, 188, 28, 82, 9, 190, 92, 162, 85, 62, 28, 19, 14, 190, 164, 180, 101, 190, 240, 73, 211, 189, 164, 10, 19, 190, 172, 125, 24, 190, 80, 186, 233, 189, 164, 167, 3, 62, 24, 101, 123, 190, 192, 202, 237, 61, 202, 165, 37, 62, 2, 254, 239, 61, 168, 74, 146, 61, 249, 18, 172, 187, 26, 120, 62, 189, 68, 110, 147, 62, 13, 176, 133, 62, 122, 139, 27, 62, 238, 101, 148, 189, 191, 124, 172, 62, 170, 44, 61, 190, 72, 178, 105, 62, 213, 172, 106, 62, 16, 232, 143, 190, 62, 99, 113, 190, 185, 48, 96, 61, 212, 249, 135, 189, 33, 216, 62, 62, 58, 66, 173, 62, 131, 159, 228, 188, 54, 70, 151, 62, 212, 141, 136, 57, 9, 131, 73, 189, 26, 205, 112, 62, 14, 252, 232, 190, 72, 20, 221, 61, 66, 168, 125, 188, 18, 47, 92, 190, 194, 113, 79, 190, 83, 210, 0, 62, 118, 224, 211, 61, 21, 104, 132, 61, 187, 145, 153, 62, 31, 26, 231, 189, 8, 140, 42, 190, 45, 207, 204, 62, 181, 167, 8, 189, 36, 210, 46, 62, 171, 183, 21, 63, 31, 63, 202, 189, 62, 63, 160, 61, 138, 255, 180, 62, 12, 6, 98, 62, 58, 182, 109, 190, 49, 23, 38, 189, 250, 30, 121, 62, 150, 161, 37, 190, 164, 185, 163, 61, 59, 23, 84, 60, 146, 137, 242, 189, 140, 81, 159, 189, 166, 171, 207, 189, 12, 26, 218, 189, 52, 153, 253, 190, 184, 246, 96, 187, 181, 173, 208, 189, 15, 45, 195, 62, 33, 199, 231, 61, 194, 141, 100, 190, 249, 179, 23, 61, 103, 232, 12, 191, 209, 181, 208, 62, 242, 235, 152, 61, 205, 86, 38, 62, 219, 178, 219, 61, 139, 117, 75, 62, 131, 217, 151, 62, 177, 97, 126, 189, 128, 127, 126, 190, 145, 194, 13, 190, 102, 216, 74, 190, 170, 41, 239, 189, 177, 106, 21, 190, 244, 204, 74, 62, 77, 8, 247, 61, 6, 180, 127, 61, 110, 149, 3, 63, 63, 229, 129, 190, 250, 182, 141, 189, 136, 194, 51, 190, 151, 153, 84, 188, 223, 42, 196, 187, 132, 21, 87, 62, 16, 90, 53, 62, 61, 121, 218, 61, 152, 14, 94, 61, 21, 158, 129, 190, 185, 117, 142, 62, 140, 69, 169, 189, 117, 180, 215, 189, 245, 85, 25, 61, 45, 243, 188, 61, 66, 97, 154, 190, 156, 235, 69, 62, 107, 68, 238, 189, 92, 115, 195, 59, 133, 79, 135, 62, 212, 36, 6, 189, 182, 180, 36, 190, 48, 23, 155, 62, 68, 158, 131, 61, 49, 42, 175, 62, 103, 236, 2, 63, 104, 235, 69, 62, 11, 120, 99, 189, 243, 71, 155, 189, 134, 72, 17, 61, 135, 33, 104, 190, 212, 70, 1, 62, 189, 214, 66, 62, 54, 145, 63, 190, 55, 89, 55, 61, 63, 97, 125, 190, 159, 155, 140, 190, 161, 163, 33, 61, 20, 117, 36, 189, 140, 175, 119, 62, 253, 222, 160, 190, 54, 22, 56, 190, 164, 160, 47, 189, 133, 145, 165, 62, 52, 46, 2, 62, 170, 183, 111, 189, 58, 225, 131, 61, 60, 71, 188, 190, 60, 252, 210, 62, 99, 220, 123, 62, 167, 21, 72, 61, 208, 179, 26, 62, 42, 240, 139, 190, 106, 144, 99, 189, 71, 176, 184, 190, 228, 27, 222, 60, 172, 249, 253, 189, 50, 22, 38, 190, 236, 91, 87, 62, 224, 115, 38, 189, 66, 206, 99, 190, 226, 1, 197, 187, 126, 128, 19, 191, 126, 146, 153, 190, 179, 31, 22, 190, 166, 190, 3, 62, 57, 11, 196, 188, 191, 45, 116, 62, 199, 238, 20, 62, 183, 68, 1, 190, 106, 89, 158, 62, 85, 58, 100, 190, 93, 182, 73, 190, 30, 4, 1, 188, 44, 206, 130, 62, 108, 50, 147, 190, 59, 40, 2, 190, 130, 39, 46, 189, 121, 40, 145, 62, 150, 158, 193, 189, 87, 147, 41, 62, 78, 117, 9, 62, 119, 106, 20, 63, 141, 3, 124, 190, 76, 54, 108, 62, 105, 89, 176, 190, 248, 130, 178, 188, 187, 228, 32, 190, 30, 113, 165, 62, 160, 8, 129, 190, 78, 11, 243, 60, 142, 154, 26, 189, 233, 140, 133, 190, 178, 7, 18, 62, 48, 47, 17, 190, 188, 145, 100, 190, 49, 36, 177, 190, 177, 66, 215, 189, 135, 101, 187, 190, 217, 67, 42, 62, 24, 117, 8, 190, 186, 208, 70, 62, 64, 240, 60, 190, 180, 181, 252, 189, 154, 246, 187, 190, 151, 208, 152, 61, 62, 151, 2, 190, 220, 119, 130, 62, 248, 27, 196, 60, 18, 39, 74, 62, 212, 3, 93, 190, 108, 240, 221, 189, 54, 2, 234, 62, 43, 149, 10, 62, 181, 252, 50, 190, 237, 223, 14, 62, 126, 44, 242, 189, 152, 70, 103, 60, 12, 124, 65, 62, 81, 12, 48, 62, 19, 54, 109, 61, 3, 200, 19, 59, 177, 193, 234, 61, 220, 17, 243, 61, 210, 219, 8, 62, 241, 40, 93, 61, 66, 199, 188, 62, 166, 211, 151, 62, 31, 255, 153, 187, 236, 4, 252, 61, 18, 215, 61, 62, 205, 72, 65, 190, 175, 79, 44, 62, 98, 50, 23, 62, 31, 167, 106, 62, 178, 17, 10, 62, 108, 167, 245, 59, 168, 182, 158, 190, 95, 183, 152, 62, 174, 126, 169, 190, 59, 95, 32, 62, 196, 98, 109, 62, 125, 225, 235, 61, 137, 174, 51, 190, 237, 46, 65, 62, 177, 14, 218, 189, 17, 158, 253, 189, 17, 134, 148, 61, 233, 93, 47, 190, 7, 36, 136, 190, 241, 58, 35, 62, 74, 55, 133, 190, 250, 151, 190, 61, 16, 75, 69, 62, 210, 244, 131, 189, 236, 110, 150, 189, 97, 36, 84, 189, 117, 86, 10, 190, 28, 159, 66, 190, 72, 169, 143, 60, 125, 146, 139, 61, 195, 168, 238, 190, 255, 161, 97, 189, 203, 150, 245, 189, 228, 245, 75, 190, 1, 65, 143, 188, 217, 219, 111, 190, 66, 144, 128, 190, 217, 106, 91, 190, 179, 80, 131, 189, 54, 5, 214, 60, 88, 207, 180, 62, 222, 79, 96, 189, 87, 161, 127, 62, 138, 239, 156, 185, 84, 212, 10, 191, 150, 101, 155, 62, 44, 70, 19, 190, 107, 158, 170, 62, 216, 168, 230, 190, 19, 139, 49, 60, 224, 23, 163, 189, 188, 51, 114, 62, 45, 0, 187, 187, 182, 251, 74, 190, 161, 178, 110, 190, 89, 225, 5, 62, 244, 29, 55, 189, 39, 254, 3, 191, 220, 163, 219, 62, 20, 73, 51, 62, 213, 226, 40, 61, 67, 223, 240, 61, 53, 250, 162, 60, 37, 81, 12, 190, 155, 69, 144, 190, 133, 165, 227, 61, 232, 50, 205, 190, 114, 99, 208, 190, 37, 244, 117, 189, 210, 51, 56, 62, 2, 227, 123, 62, 184, 15, 79, 190, 90, 162, 94, 62, 183, 108, 221, 189, 240, 3, 65, 189, 182, 213, 109, 62, 187, 236, 197, 62, 100, 250, 7, 62, 200, 10, 144, 62, 92, 41, 95, 60, 21, 129, 129, 189, 237, 44, 137, 62, 41, 190, 128, 62, 52, 184, 150, 190, 205, 252, 217, 62, 78, 5, 62, 190, 57, 248, 164, 190, 37, 152, 170, 190, 74, 47, 160, 62, 84, 23, 83, 190, 56, 2, 34, 61, 15, 194, 82, 61, 249, 19, 149, 62, 167, 98, 91, 187, 35, 140, 61, 62, 162, 218, 51, 62, 229, 167, 159, 62, 66, 114, 0, 63, 116, 89, 28, 190, 140, 85, 8, 61, 126, 0, 14, 61, 30, 222, 34, 63, 105, 125, 47, 62, 117, 115, 143, 190, 179, 21, 244, 189, 26, 67, 3, 62, 191, 97, 199, 189, 174, 76, 234, 189, 144, 63, 29, 63, 87, 141, 250, 190, 68, 29, 61, 190, 197, 91, 40, 61, 100, 89, 84, 190, 59, 238, 19, 62, 0, 253, 171, 59, 176, 22, 121, 190, 180, 153, 58, 62, 181, 124, 42, 190, 94, 71, 155, 61, 176, 103, 136, 62, 120, 85, 238, 189, 219, 31, 199, 189, 75, 137, 227, 189, 45, 250, 186, 61, 118, 107, 245, 189, 207, 90, 165, 62, 141, 74, 110, 62, 135, 182, 191, 189, 218, 31, 149, 190, 60, 135, 193, 61, 25, 116, 17, 62, 236, 103, 152, 190, 156, 69, 167, 189, 223, 195, 168, 189, 4, 50, 144, 62, 15, 43, 26, 62, 40, 68, 210, 59, 187, 80, 19, 190, 184, 211, 35, 62, 63, 208, 45, 62, 56, 50, 10, 189, 206, 218, 92, 62, 54, 34, 166, 190, 28, 53, 173, 190, 238, 173, 135, 189, 235, 212, 95, 62, 105, 36, 200, 62, 7, 244, 134, 190, 59, 209, 78, 189, 153, 94, 26, 61, 52, 90, 178, 189, 227, 82, 123, 62, 206, 138, 241, 189, 194, 35, 127, 60, 154, 50, 49, 188, 47, 188, 80, 61, 157, 2, 105, 61, 173, 161, 146, 62, 49, 77, 15, 190, 37, 155, 30, 62, 43, 108, 121, 190, 164, 15, 41, 62, 146, 96, 225, 61, 253, 162, 167, 61, 177, 56, 232, 61, 23, 22, 122, 61, 101, 106, 54, 62, 215, 225, 24, 190, 238, 43, 165, 190, 95, 93, 112, 62, 195, 20, 63, 61, 46, 98, 12, 190, 6, 18, 91, 62, 182, 210, 51, 189, 124, 31, 134, 190, 170, 94, 12, 62, 197, 131, 152, 189, 134, 215, 217, 61, 59, 153, 32, 62, 188, 80, 8, 62, 248, 21, 231, 187, 151, 17, 102, 62, 156, 230, 97, 190, 225, 66, 61, 188, 236, 100, 90, 190, 253, 69, 157, 190, 150, 35, 133, 62, 23, 250, 184, 61, 251, 86, 184, 190, 113, 28, 180, 62, 99, 214, 15, 62, 75, 93, 97, 189, 38, 94, 232, 189, 115, 193, 57, 189, 172, 6, 157, 190, 175, 89, 178, 189, 118, 216, 211, 190, 227, 101, 56, 190, 252, 216, 50, 190, 153, 135, 20, 62, 92, 109, 121, 62, 85, 215, 171, 61, 115, 194, 209, 189, 196, 229, 148, 62, 50, 83, 132, 61, 110, 132, 69, 190, 229, 54, 137, 62, 199, 241, 192, 188, 113, 191, 19, 61, 57, 208, 55, 190, 27, 10, 77, 61, 214, 155, 194, 190, 243, 181, 120, 61, 48, 23, 153, 190, 170, 145, 206, 190, 252, 155, 242, 189, 175, 2, 97, 189, 88, 97, 157, 190, 38, 102, 90, 188, 200, 104, 77, 190, 158, 89, 49, 62, 104, 209, 207, 189, 107, 134, 29, 62, 168, 183, 20, 188, 69, 29, 135, 189, 51, 70, 221, 62, 23, 175, 228, 189, 187, 189, 57, 189, 182, 170, 70, 61, 231, 22, 28, 63, 251, 129, 66, 62, 21, 63, 89, 62, 105, 162, 138, 190, 31, 224, 22, 62, 162, 153, 43, 62, 201, 111, 44, 62, 150, 111, 89, 62, 78, 83, 151, 190, 174, 188, 203, 61, 164, 241, 130, 61, 200, 28, 27, 62, 229, 160, 86, 62, 74, 74, 251, 189, 128, 191, 27, 62, 143, 137, 42, 62, 66, 45, 221, 60, 188, 21, 214, 61, 224, 226, 8, 190, 173, 88, 230, 189, 209, 134, 242, 189, 155, 243, 47, 190, 145, 140, 1, 61, 44, 233, 138, 61, 255, 157, 123, 190, 252, 112, 77, 190, 245, 177, 38, 62, 113, 199, 196, 188, 156, 193, 114, 62, 131, 133, 235, 60, 152, 102, 32, 189, 192, 254, 146, 62, 188, 90, 91, 62, 255, 217, 170, 190, 237, 154, 135, 62, 225, 254, 234, 190, 14, 187, 75, 62, 232, 255, 123, 60, 144, 114, 143, 61, 55, 109, 146, 189, 249, 0, 130, 62, 71, 133, 73, 62, 45, 147, 108, 189, 163, 220, 141, 62, 177, 38, 18, 190, 189, 129, 174, 187, 39, 182, 178, 62, 47, 202, 163, 189, 87, 114, 139, 62, 216, 157, 215, 62, 112, 7, 28, 190, 209, 150, 182, 190, 131, 2, 27, 189, 28, 20, 95, 62, 46, 98, 225, 61, 140, 146, 100, 62, 104, 48, 148, 62, 184, 84, 200, 190, 31, 240, 153, 189, 173, 0, 122, 61, 191, 69, 236, 189, 147, 146, 125, 59, 211, 236, 224, 61, 219, 247, 176, 189, 10, 55, 167, 190, 244, 153, 20, 61, 127, 156, 4, 190, 252, 84, 177, 62, 171, 127, 168, 189, 28, 49, 235, 61, 15, 132, 37, 190, 206, 15, 135, 190, 37, 211, 106, 62, 17, 245, 70, 190, 74, 23, 176, 62, 191, 161, 116, 61, 221, 74, 139, 190, 161, 232, 162, 189, 232, 6, 133, 62, 3, 55, 20, 190, 87, 15, 144, 189, 8, 17, 187, 61, 24, 87, 138, 190, 4, 41, 154, 190, 144, 117, 145, 188, 119, 91, 135, 62, 19, 39, 148, 190, 134, 218, 30, 190, 72, 119, 105, 62, 218, 33, 9, 190, 55, 128, 150, 189, 126, 188, 7, 190, 67, 17, 102, 189, 118, 42, 56, 62, 22, 96, 134, 188, 132, 145, 156, 188, 123, 25, 146, 61, 202, 109, 244, 189, 58, 144, 68, 190, 243, 213, 38, 62, 173, 23, 208, 61, 104, 115, 18, 62, 101, 190, 100, 62, 70, 198, 159, 62, 252, 183, 57, 189, 243, 233, 165, 62, 50, 235, 102, 62, 194, 63, 79, 190, 62, 36, 22, 62, 134, 50, 148, 189, 233, 221, 75, 190, 205, 40, 31, 62, 196, 137, 21, 189, 240, 181, 87, 189, 97, 228, 59, 62, 36, 172, 136, 62, 214, 193, 166, 190, 45, 34, 142, 190, 88, 107, 134, 62, 50, 7, 159, 189, 215, 13, 186, 190, 69, 83, 129, 62, 146, 232, 16, 190, 235, 50, 168, 62, 241, 221, 111, 189, 147, 153, 229, 188, 154, 100, 54, 62, 38, 218, 237, 60, 182, 164, 44, 62, 244, 1, 248, 61, 140, 219, 76, 62, 112, 179, 160, 61, 226, 143, 11, 190, 20, 40, 110, 60, 116, 105, 242, 59, 169, 118, 32, 63, 127, 187, 148, 61, 110, 106, 3, 62, 88, 32, 39, 188, 210, 166, 157, 61, 96, 207, 3, 190, 226, 122, 76, 190, 35, 30, 169, 190, 97, 114, 75, 62, 152, 205, 72, 60, 247, 131, 145, 189, 198, 96, 20, 189, 240, 9, 154, 61, 241, 91, 180, 61, 30, 133, 102, 190, 253, 69, 104, 61, 2, 19, 158, 190, 235, 152, 209, 188, 8, 115, 148, 62, 22, 187, 184, 189, 127, 240, 19, 61, 125, 123, 122, 190, 77, 45, 178, 190, 53, 235, 81, 60, 66, 67, 152, 190, 121, 252, 114, 59, 31, 16, 156, 62, 67, 189, 9, 62, 220, 147, 81, 62, 162, 37, 122, 190, 220, 67, 17, 62, 224, 236, 169, 61, 211, 35, 16, 62, 124, 94, 118, 189, 97, 177, 14, 190, 32, 82, 17, 191, 194, 17, 3, 62, 236, 236, 245, 61, 241, 66, 122, 62, 143, 53, 151, 190, 156, 25, 0, 62, 231, 63, 42, 62, 157, 173, 2, 190, 110, 173, 56, 190, 217, 11, 96, 189, 164, 182, 239, 61, 215, 196, 110, 62, 11, 38, 144, 190, 88, 177, 130, 62, 213, 125, 21, 62, 75, 24, 38, 190, 56, 230, 162, 62, 88, 143, 26, 190, 146, 171, 189, 62, 248, 168, 9, 62, 173, 123, 141, 190, 97, 190, 183, 61, 100, 66, 155, 60, 138, 154, 3, 61, 29, 117, 160, 190, 33, 140, 162, 190, 201, 180, 107, 62, 77, 132, 155, 189, 190, 138, 45, 190, 14, 132, 239, 62, 97, 201, 88, 190, 69, 199, 136, 190, 49, 221, 199, 188, 144, 21, 130, 189, 252, 239, 92, 190, 164, 23, 4, 190, 224, 129, 81, 190, 100, 105, 25, 190, 236, 24, 9, 190, 168, 126, 28, 62, 220, 199, 61, 62, 0, 37, 244, 188, 224, 165, 191, 189, 16, 208, 4, 61, 24, 18, 86, 62, 140, 83, 27, 62, 96, 227, 210, 60, 248, 39, 167, 189, 28, 223, 110, 190, 144, 18, 60, 62, 64, 5, 92, 60, 68, 19, 105, 62, 20, 106, 39, 190, 224, 149, 111, 190, 136, 224, 221, 189, 208, 159, 159, 189, 112, 30, 23, 62, 208, 135, 217, 189, 80, 222, 95, 61, 48, 99, 148, 189, 128, 122, 168, 60, 204, 90, 56, 190, 168, 89, 157, 189, 208, 105, 55, 189, 64, 21, 80, 60, 92, 61, 31, 190, 124, 75, 74, 190, 128, 51, 12, 62, 16, 31, 221, 189, 100, 153, 57, 62, 32, 153, 254, 61, 48, 38, 166, 189, 192, 163, 249, 61, 4, 106, 104, 190, 40, 30, 138, 189, 212, 249, 22, 190, 64, 88, 40, 62, 144, 148, 238, 189, 32, 224, 29, 62, 92, 29, 2, 62, 16, 243, 68, 62, 200, 67, 252, 189, 136, 124, 128, 189, 208, 233, 237, 61, 144, 9, 5, 189, 208, 54, 103, 189, 144, 183, 17, 190, 224, 91, 127, 189, 108, 212, 84, 190, 80, 251, 81, 189, 184, 52, 103, 190, 80, 84, 66, 190, 224, 208, 114, 190, 208, 254, 162, 61, 160, 248, 53, 61, 112, 214, 29, 62, 224, 9, 111, 190, 16, 200, 18, 190, 187, 139, 236, 189, 246, 227, 107, 61, 226, 145, 179, 62, 173, 78, 128, 62, 116, 1, 56, 190, 168, 197, 20, 61, 236, 212, 34, 189, 194, 188, 128, 61, 22, 133, 193, 189, 221, 167, 55, 189, 49, 24, 152, 190, 65, 106, 43, 190, 135, 22, 186, 188, 35, 178, 94, 62, 6, 68, 8, 187, 147, 176, 41, 188, 140, 222, 224, 61, 84, 122, 7, 62, 3, 190, 229, 189, 113, 211, 173, 190, 11, 41, 71, 189, 58, 41, 55, 189, 208, 180, 139, 189, 77, 109, 183, 62, 161, 94, 165, 62, 254, 154, 100, 190, 212, 239, 60, 62, 131, 1, 150, 62, 10, 241, 162, 189, 187, 111, 175, 62, 186, 255, 20, 62, 161, 81, 90, 190, 68, 155, 117, 190, 125, 131, 50, 62, 48, 119, 69, 189, 183, 123, 37, 62, 2, 195, 111, 190, 174, 165, 20, 190, 191, 202, 44, 62, 70, 103, 94, 62, 217, 244, 220, 189, 54, 240, 180, 187, 75, 138, 133, 62, 215, 248, 102, 190, 145, 225, 221, 190, 220, 83, 150, 62, 9, 218, 252, 61, 176, 143, 153, 59, 178, 228, 177, 189, 97, 95, 73, 190, 70, 60, 95, 190, 17, 2, 33, 62, 247, 255, 10, 63, 79, 34, 18, 62, 188, 191, 159, 62, 120, 196, 238, 60, 64, 128, 45, 62, 149, 172, 80, 62, 143, 131, 56, 59, 193, 84, 220, 62, 70, 170, 160, 189, 212, 134, 229, 188, 6, 84, 132, 189, 45, 78, 210, 189, 149, 204, 38, 62, 227, 90, 29, 190, 202, 182, 242, 188, 235, 142, 90, 61, 68, 59, 55, 62, 149, 197, 183, 61, 88, 190, 255, 61, 62, 166, 122, 61, 150, 59, 57, 62, 200, 91, 198, 187, 122, 11, 152, 190, 15, 133, 98, 190, 245, 110, 182, 61, 150, 101, 106, 190, 142, 41, 153, 61, 236, 237, 36, 190, 237, 195, 78, 61, 39, 145, 30, 62, 33, 57, 208, 60, 4, 95, 112, 190, 0, 218, 118, 190, 48, 112, 105, 190, 208, 210, 134, 189, 125, 220, 203, 190, 9, 251, 192, 59, 170, 236, 61, 62, 216, 148, 146, 189, 47, 154, 119, 190, 253, 27, 112, 62, 204, 178, 205, 61, 19, 86, 137, 62, 200, 149, 57, 190, 60, 180, 68, 60, 116, 138, 180, 188, 177, 141, 84, 62, 7, 119, 142, 190, 95, 172, 52, 61, 140, 165, 141, 62, 203, 36, 152, 188, 2, 97, 66, 190, 233, 76, 101, 190, 181, 189, 18, 62, 223, 50, 95, 190, 185, 33, 181, 61, 190, 239, 161, 190, 189, 187, 235, 61, 237, 9, 40, 190, 7, 10, 229, 61, 97, 132, 163, 190, 138, 59, 9, 62, 70, 254, 145, 61, 251, 237, 32, 62, 187, 108, 1, 60, 230, 135, 0, 62, 246, 242, 155, 60, 93, 232, 11, 62, 97, 77, 186, 189, 155, 71, 250, 61, 147, 55, 169, 61, 76, 237, 196, 189, 5, 121, 61, 62, 216, 202, 212, 61, 177, 29, 75, 190, 154, 171, 152, 185, 2, 255, 251, 189, 100, 68, 69, 62, 68, 177, 7, 190, 127, 152, 28, 60, 85, 35, 195, 61, 198, 83, 175, 59, 159, 238, 91, 190, 244, 222, 13, 62, 118, 182, 145, 61, 64, 225, 138, 62, 199, 187, 192, 190, 255, 77, 232, 60, 71, 182, 153, 190, 251, 187, 117, 61, 111, 50, 117, 62, 150, 135, 85, 62, 88, 105, 195, 189, 18, 93, 204, 60, 100, 15, 17, 62, 160, 4, 21, 61, 69, 146, 72, 188, 45, 18, 195, 189, 43, 95, 22, 190, 197, 133, 213, 62, 32, 115, 221, 61, 127, 135, 56, 62, 26, 134, 14, 62, 221, 122, 183, 62, 73, 186, 121, 190, 155, 186, 54, 62, 166, 215, 24, 62, 181, 38, 200, 189, 87, 81, 219, 61, 179, 132, 227, 189, 138, 30, 48, 60, 139, 87, 220, 61, 79, 125, 159, 189, 140, 177, 64, 188, 212, 189, 142, 188, 106, 16, 133, 62, 107, 195, 166, 190, 5, 7, 130, 190, 166, 168, 139, 61, 193, 62, 84, 61, 63, 28, 143, 189, 9, 112, 196, 61, 76, 130, 232, 60, 119, 229, 187, 62, 227, 132, 252, 189, 152, 226, 112, 189, 80, 248, 146, 189, 65, 63, 37, 62, 33, 70, 12, 63, 58, 83, 187, 61, 192, 174, 44, 186, 212, 239, 240, 188, 143, 183, 108, 190, 195, 106, 49, 61, 62, 40, 20, 62, 243, 246, 133, 62, 113, 106, 146, 190, 176, 165, 30, 62, 154, 155, 39, 190, 90, 246, 255, 255, 4, 0, 0, 0, 0, 8, 0, 0, 113, 25, 185, 60, 85, 20, 20, 190, 20, 117, 128, 61, 156, 216, 230, 61, 166, 212, 178, 61, 199, 177, 183, 190, 154, 8, 34, 190, 209, 247, 142, 62, 11, 240, 120, 189, 236, 61, 225, 189, 234, 186, 142, 62, 89, 254, 3, 189, 92, 108, 56, 190, 228, 154, 216, 189, 141, 222, 152, 189, 6, 40, 250, 189, 82, 102, 70, 62, 27, 173, 165, 189, 170, 235, 225, 61, 32, 188, 125, 61, 108, 254, 143, 60, 167, 148, 90, 190, 94, 195, 227, 61, 138, 155, 128, 62, 240, 200, 165, 60, 57, 222, 241, 189, 179, 227, 116, 61, 240, 30, 205, 61, 150, 74, 149, 189, 34, 203, 12, 190, 112, 26, 251, 62, 144, 43, 142, 62, 106, 144, 54, 62, 60, 65, 35, 186, 51, 207, 161, 61, 250, 143, 23, 189, 1, 251, 93, 62, 138, 163, 128, 190, 19, 205, 26, 190, 90, 155, 58, 190, 50, 72, 83, 62, 248, 177, 99, 62, 139, 255, 126, 190, 71, 64, 17, 61, 211, 148, 89, 190, 212, 123, 13, 190, 226, 190, 249, 189, 111, 15, 154, 62, 109, 90, 95, 190, 35, 231, 151, 62, 250, 242, 195, 188, 220, 231, 0, 190, 37, 145, 174, 61, 200, 18, 30, 62, 89, 100, 2, 190, 39, 125, 92, 190, 135, 92, 24, 62, 220, 194, 121, 190, 141, 249, 48, 190, 117, 201, 7, 62, 119, 71, 44, 62, 88, 56, 141, 62, 179, 253, 251, 190, 80, 80, 88, 61, 43, 27, 5, 62, 236, 43, 115, 190, 245, 183, 154, 62, 28, 74, 45, 190, 193, 130, 161, 61, 120, 129, 188, 59, 41, 163, 61, 62, 109, 223, 97, 190, 12, 19, 68, 190, 157, 33, 89, 61, 144, 33, 71, 62, 10, 124, 20, 62, 82, 44, 202, 190, 138, 60, 2, 191, 155, 86, 69, 189, 0, 29, 208, 187, 184, 235, 220, 189, 47, 46, 136, 60, 186, 28, 245, 189, 239, 180, 208, 188, 68, 230, 210, 62, 100, 116, 241, 189, 128, 21, 173, 62, 239, 162, 95, 61, 117, 251, 5, 61, 253, 105, 252, 60, 219, 106, 244, 189, 115, 118, 53, 190, 100, 226, 14, 191, 42, 47, 162, 190, 253, 226, 203, 61, 192, 24, 139, 62, 80, 75, 95, 189, 196, 114, 84, 62, 127, 64, 183, 190, 190, 114, 15, 190, 199, 37, 186, 190, 232, 50, 206, 190, 28, 80, 186, 61, 226, 167, 89, 188, 14, 133, 11, 190, 32, 180, 46, 190, 52, 202, 214, 189, 109, 193, 131, 190, 212, 95, 166, 190, 118, 43, 121, 62, 212, 80, 160, 189, 182, 173, 147, 60, 6, 81, 134, 190, 42, 41, 146, 61, 75, 235, 71, 189, 246, 152, 113, 62, 147, 24, 214, 190, 216, 15, 164, 62, 202, 219, 42, 190, 176, 208, 104, 190, 193, 128, 7, 188, 103, 98, 108, 189, 51, 201, 24, 190, 244, 135, 50, 62, 252, 211, 163, 61, 58, 200, 117, 190, 198, 50, 162, 62, 47, 222, 203, 60, 73, 106, 65, 61, 210, 21, 13, 190, 186, 97, 8, 62, 240, 123, 101, 62, 144, 225, 173, 62, 98, 198, 141, 189, 95, 67, 85, 189, 90, 57, 21, 62, 38, 13, 180, 189, 205, 109, 70, 190, 166, 52, 10, 190, 112, 78, 64, 61, 150, 204, 173, 62, 132, 60, 61, 60, 217, 43, 81, 190, 10, 238, 131, 62, 111, 66, 160, 190, 61, 59, 105, 190, 147, 32, 11, 190, 231, 127, 241, 60, 233, 12, 152, 190, 217, 87, 129, 190, 111, 26, 150, 62, 252, 81, 26, 62, 92, 128, 117, 62, 83, 11, 2, 62, 185, 40, 126, 187, 28, 62, 245, 60, 247, 67, 182, 62, 4, 118, 200, 60, 251, 1, 189, 190, 26, 155, 217, 60, 132, 176, 56, 188, 147, 157, 240, 61, 150, 29, 66, 62, 204, 23, 250, 189, 62, 238, 213, 190, 195, 243, 135, 190, 109, 81, 129, 62, 1, 39, 123, 61, 213, 195, 107, 62, 178, 190, 61, 190, 160, 232, 77, 62, 88, 57, 67, 62, 174, 93, 152, 190, 97, 167, 135, 62, 97, 196, 195, 60, 108, 22, 128, 189, 176, 255, 133, 189, 243, 24, 219, 189, 174, 209, 164, 189, 76, 25, 15, 62, 190, 152, 95, 190, 8, 2, 145, 62, 217, 17, 107, 62, 82, 186, 213, 60, 148, 246, 16, 190, 212, 149, 77, 189, 139, 218, 70, 62, 140, 150, 31, 61, 144, 63, 189, 62, 236, 23, 85, 62, 219, 205, 152, 190, 102, 219, 64, 189, 152, 172, 20, 62, 27, 239, 244, 188, 226, 176, 163, 189, 135, 135, 131, 190, 180, 146, 41, 190, 133, 29, 200, 62, 243, 127, 129, 62, 24, 3, 236, 58, 182, 188, 168, 189, 125, 252, 39, 62, 177, 233, 14, 190, 150, 145, 83, 62, 34, 141, 196, 189, 237, 250, 109, 190, 244, 250, 204, 62, 71, 158, 84, 62, 24, 200, 108, 62, 179, 59, 109, 62, 32, 245, 72, 190, 199, 181, 25, 62, 244, 165, 63, 190, 15, 218, 131, 189, 124, 77, 186, 190, 127, 247, 133, 62, 249, 102, 74, 62, 176, 140, 132, 62, 153, 132, 138, 62, 160, 231, 196, 189, 70, 243, 135, 62, 34, 132, 82, 190, 67, 45, 48, 190, 230, 158, 175, 187, 205, 167, 80, 189, 195, 50, 138, 62, 144, 43, 243, 189, 3, 52, 31, 62, 238, 227, 209, 62, 185, 172, 233, 61, 55, 142, 124, 62, 217, 118, 175, 189, 40, 68, 60, 190, 252, 146, 176, 61, 124, 241, 9, 62, 112, 69, 88, 62, 252, 255, 186, 62, 136, 36, 163, 62, 108, 36, 222, 190, 10, 201, 4, 189, 170, 162, 29, 189, 247, 248, 49, 189, 52, 56, 77, 62, 247, 36, 5, 62, 138, 189, 193, 62, 110, 64, 138, 61, 97, 233, 67, 62, 80, 200, 152, 62, 137, 5, 44, 190, 67, 161, 209, 61, 64, 116, 108, 61, 234, 71, 16, 190, 16, 241, 193, 62, 92, 5, 26, 190, 240, 111, 169, 190, 108, 73, 191, 61, 65, 249, 5, 62, 159, 174, 75, 190, 170, 79, 32, 62, 34, 215, 166, 189, 239, 199, 249, 190, 145, 192, 152, 186, 174, 110, 173, 62, 231, 192, 158, 62, 253, 139, 129, 190, 148, 35, 135, 62, 21, 72, 19, 190, 72, 175, 93, 190, 78, 8, 210, 189, 234, 120, 150, 61, 239, 124, 113, 190, 73, 143, 29, 62, 177, 227, 137, 62, 71, 185, 46, 60, 236, 110, 62, 60, 101, 75, 128, 189, 203, 237, 252, 188, 165, 144, 211, 62, 142, 9, 133, 62, 24, 187, 67, 61, 232, 115, 89, 62, 174, 208, 243, 189, 217, 18, 178, 189, 244, 149, 32, 190, 8, 11, 160, 190, 223, 31, 131, 190, 137, 103, 7, 61, 18, 127, 26, 189, 121, 154, 179, 189, 57, 148, 118, 190, 221, 252, 194, 61, 128, 5, 128, 189, 68, 34, 215, 62, 98, 133, 184, 61, 28, 43, 217, 62, 219, 210, 167, 61, 242, 147, 71, 62, 83, 142, 31, 190, 35, 180, 73, 190, 202, 148, 247, 189, 82, 61, 215, 62, 185, 137, 65, 62, 3, 240, 242, 190, 236, 233, 232, 60, 20, 76, 137, 189, 145, 150, 1, 190, 65, 187, 17, 62, 38, 109, 120, 189, 221, 84, 253, 190, 226, 102, 198, 190, 198, 233, 145, 62, 122, 12, 144, 57, 73, 202, 64, 61, 219, 135, 169, 188, 44, 227, 76, 62, 183, 124, 135, 62, 89, 105, 5, 190, 177, 69, 58, 189, 156, 49, 50, 189, 70, 7, 223, 188, 182, 78, 92, 62, 49, 62, 57, 190, 95, 57, 71, 190, 173, 146, 160, 189, 69, 58, 26, 62, 63, 230, 99, 62, 77, 205, 167, 62, 8, 255, 105, 190, 81, 207, 11, 190, 142, 64, 195, 189, 159, 118, 127, 190, 141, 169, 80, 62, 46, 114, 249, 190, 175, 34, 241, 190, 224, 25, 201, 189, 159, 251, 222, 61, 202, 176, 121, 60, 203, 112, 64, 62, 240, 223, 70, 62, 144, 106, 185, 189, 251, 60, 148, 189, 25, 88, 50, 62, 50, 100, 222, 190, 178, 118, 120, 62, 69, 131, 232, 189, 88, 45, 154, 190, 197, 243, 137, 189, 24, 147, 6, 189, 167, 250, 52, 189, 110, 45, 180, 189, 146, 131, 234, 189, 74, 122, 131, 190, 212, 222, 132, 189, 141, 251, 135, 62, 37, 52, 116, 189, 60, 95, 116, 61, 90, 52, 137, 190, 24, 44, 152, 61, 2, 52, 248, 188, 115, 157, 150, 62, 225, 237, 48, 61, 142, 176, 170, 189, 131, 201, 170, 189, 16, 135, 138, 190, 229, 30, 9, 191, 90, 194, 106, 190, 35, 166, 121, 188, 158, 55, 152, 62, 88, 30, 110, 61, 235, 1, 160, 189, 229, 212, 2, 190, 21, 30, 23, 190, 141, 171, 142, 62, 235, 163, 192, 62, 207, 215, 191, 62, 110, 140, 31, 190, 99, 197, 25, 62, 90, 83, 239, 61, 63, 52, 53, 61, 40, 156, 0, 190, 182, 10, 160, 190, 24, 254, 72, 61, 220, 28, 44, 190, 184, 233, 237, 189, 186, 112, 162, 189, 109, 192, 133, 61, 50, 103, 20, 189, 140, 25, 9, 62, 150, 29, 221, 62, 171, 246, 14, 190, 241, 238, 115, 61, 80, 176, 226, 189, 247, 84, 199, 189, 227, 208, 251, 61, 5, 171, 166, 189, 94, 62, 159, 190, 73, 161, 171, 190, 6, 14, 210, 62, 61, 125, 0, 189, 86, 94, 246, 189, 230, 2, 98, 62, 167, 214, 141, 190, 77, 122, 251, 61, 33, 184, 24, 189, 235, 114, 207, 189, 31, 48, 138, 62, 3, 149, 4, 62, 8, 55, 48, 190, 177, 2, 95, 190, 219, 133, 157, 61, 122, 197, 9, 190, 87, 214, 105, 61, 98, 32, 31, 62, 134, 177, 68, 62, 129, 55, 71, 62, 201, 75, 136, 190, 238, 67, 151, 62, 91, 207, 32, 62, 24, 132, 253, 61, 181, 205, 138, 62, 108, 182, 224, 62, 100, 163, 5, 62, 139, 133, 113, 62, 48, 162, 235, 189, 120, 0, 1, 189, 253, 48, 165, 189, 196, 114, 28, 189, 239, 228, 134, 189, 87, 123, 1, 61, 89, 113, 163, 62, 150, 112, 100, 62, 190, 191, 137, 189, 187, 110, 173, 62, 27, 211, 130, 62, 36, 164, 27, 62, 14, 68, 134, 190, 245, 226, 76, 62, 10, 159, 210, 188, 11, 221, 10, 190, 227, 213, 131, 190, 44, 142, 76, 190, 118, 95, 95, 189, 165, 146, 133, 61, 211, 21, 133, 62, 147, 225, 100, 62, 174, 147, 88, 190, 110, 228, 9, 62, 116, 178, 140, 62, 252, 193, 105, 190, 69, 18, 37, 188, 212, 130, 77, 189, 64, 185, 118, 189, 141, 160, 233, 62, 186, 92, 72, 62, 123, 216, 184, 190, 165, 172, 193, 188, 13, 241, 93, 62, 50, 72, 101, 60, 185, 145, 191, 187, 246, 72, 58, 62, 150, 198, 157, 59, 112, 4, 176, 62, 171, 34, 23, 62, 177, 247, 103, 190, 124, 82, 138, 190, 67, 31, 72, 62, 186, 114, 130, 189, 236, 203, 135, 62, 191, 60, 130, 62, 50, 152, 141, 61, 197, 246, 35, 190, 28, 238, 50, 62, 194, 107, 151, 189, 40, 8, 132, 190, 45, 86, 190, 61, 18, 4, 147, 62, 226, 76, 39, 62, 176, 214, 169, 189, 5, 59, 138, 62, 186, 240, 24, 59, 58, 40, 190, 61, 187, 41, 140, 60, 162, 123, 133, 189, 53, 69, 108, 190, 211, 142, 166, 187, 225, 146, 197, 62, 79, 65, 142, 62, 112, 57, 204, 188, 88, 221, 166, 61, 213, 64, 38, 62, 52, 216, 5, 61, 233, 31, 239, 189, 120, 152, 194, 62, 46, 160, 107, 61, 196, 166, 187, 190, 95, 216, 232, 188, 71, 10, 43, 62, 90, 128, 137, 62, 46, 172, 234, 188, 151, 43, 131, 62, 88, 36, 217, 62, 146, 53, 22, 190, 254, 144, 164, 190, 87, 188, 93, 61, 86, 142, 209, 61, 66, 171, 31, 62, 205, 218, 141, 62, 69, 123, 128, 188, 137, 228, 165, 190, 105, 45, 234, 190, 218, 168, 216, 61, 142, 135, 163, 62, 102, 254, 255, 255, 4, 0, 0, 0, 0, 1, 0, 0, 208, 29, 194, 189, 38, 179, 64, 189, 191, 255, 198, 61, 117, 119, 231, 61, 16, 239, 2, 189, 146, 158, 200, 189, 115, 97, 26, 61, 168, 76, 204, 61, 120, 14, 229, 59, 101, 165, 25, 61, 162, 188, 114, 62, 249, 223, 197, 59, 125, 168, 78, 61, 167, 22, 161, 60, 90, 29, 137, 61, 249, 125, 137, 61, 162, 64, 82, 61, 20, 169, 27, 62, 86, 127, 216, 189, 159, 105, 203, 189, 81, 103, 104, 189, 23, 183, 86, 60, 2, 181, 63, 61, 22, 112, 200, 187, 63, 0, 88, 62, 242, 58, 67, 61, 80, 54, 73, 60, 252, 164, 159, 189, 226, 128, 90, 62, 2, 118, 32, 189, 240, 239, 30, 62, 25, 171, 106, 188, 36, 242, 3, 190, 169, 126, 103, 189, 219, 208, 0, 62, 188, 206, 16, 61, 121, 181, 45, 62, 28, 98, 28, 61, 228, 181, 43, 60, 71, 121, 15, 189, 54, 172, 95, 62, 29, 175, 68, 189, 19, 107, 9, 59, 241, 230, 11, 189, 101, 35, 212, 60, 252, 194, 141, 189, 18, 66, 114, 62, 57, 178, 101, 61, 182, 76, 111, 62, 3, 220, 244, 61, 215, 101, 105, 60, 210, 220, 1, 188, 161, 30, 75, 62, 33, 2, 88, 62, 132, 91, 157, 60, 83, 246, 149, 61, 89, 226, 80, 189, 19, 96, 88, 189, 185, 7, 19, 62, 151, 101, 152, 61, 184, 58, 81, 62, 116, 60, 77, 189, 244, 123, 3, 189, 8, 248, 176, 189, 114, 255, 255, 255, 4, 0, 0, 0, 128, 0, 0, 0, 214, 67, 18, 62, 49, 182, 213, 61, 0, 0, 0, 0, 154, 46, 2, 189, 4, 171, 192, 189, 97, 191, 209, 189, 69, 98, 149, 189, 178, 89, 114, 61, 146, 142, 34, 189, 167, 198, 155, 188, 144, 190, 182, 188, 241, 43, 25, 189, 80, 124, 76, 189, 221, 150, 7, 62, 0, 0, 0, 0, 61, 168, 81, 188, 150, 155, 123, 189, 0, 0, 0, 0, 185, 18, 178, 189, 186, 124, 78, 188, 98, 207, 120, 189, 40, 76, 170, 58, 33, 107, 73, 62, 103, 105, 45, 60, 68, 31, 20, 62, 82, 168, 201, 189, 189, 223, 4, 62, 248, 90, 149, 61, 0, 0, 0, 0, 111, 158, 12, 62, 137, 199, 184, 188, 22, 172, 233, 61, 0, 0, 6, 0, 8, 0, 4, 0, 6, 0, 0, 0, 4, 0, 0, 0, 4, 0, 0, 0, 37, 146, 229, 61, 92, 250, 255, 255, 96, 250, 255, 255, 15, 0, 0, 0, 77, 76, 73, 82, 32, 67, 111, 110, 118, 101, 114, 116, 101, 100, 46, 0, 1, 0, 0, 0, 20, 0, 0, 0, 0, 0, 14, 0, 24, 0, 20, 0, 16, 0, 12, 0, 8, 0, 4, 0, 14, 0, 0, 0, 20, 0, 0, 0, 28, 0, 0, 0, 8, 1, 0, 0, 12, 1, 0, 0, 16, 1, 0, 0, 4, 0, 0, 0, 109, 97, 105, 110, 0, 0, 0, 0, 4, 0, 0, 0, 176, 0, 0, 0, 104, 0, 0, 0, 52, 0, 0, 0, 16, 0, 0, 0, 0, 0, 10, 0, 16, 0, 12, 0, 8, 0, 4, 0, 10, 0, 0, 0, 12, 0, 0, 0, 16, 0, 0, 0, 1, 0, 0, 0, 1, 0, 0, 0, 10, 0, 0, 0, 1, 0, 0, 0, 9, 0, 0, 0, 154, 255, 255, 255, 16, 0, 0, 0, 0, 0, 0, 8, 12, 0, 0, 0, 16, 0, 0, 0, 8, 251, 255, 255, 1, 0, 0, 0, 9, 0, 0, 0, 3, 0, 0, 0, 8, 0, 0, 0, 6, 0, 0, 0, 1, 0, 0, 0, 202, 255, 255, 255, 16, 0, 0, 0, 0, 0, 0, 8, 16, 0, 0, 0, 20, 0, 0, 0, 186, 255, 255, 255, 0, 0, 0, 1, 1, 0, 0, 0, 8, 0, 0, 0, 3, 0, 0, 0, 7, 0, 0, 0, 5, 0, 0, 0, 2, 0, 0, 0, 0, 0, 14, 0, 22, 0, 0, 0, 16, 0, 12, 0, 11, 0, 4, 0, 14, 0, 0, 0, 24, 0, 0, 0, 0, 0, 0, 8, 24, 0, 0, 0, 28, 0, 0, 0, 0, 0, 6, 0, 8, 0, 7, 0, 6, 0, 0, 0, 0, 0, 0, 1, 1, 0, 0, 0, 7, 0, 0, 0, 3, 0, 0, 0, 0, 0, 0, 0, 4, 0, 0, 0, 3, 0, 0, 0, 1, 0, 0, 0, 10, 0, 0, 0, 1, 0, 0, 0, 0, 0, 0, 0, 11, 0, 0, 0, 32, 4, 0, 0, 176, 3, 0, 0, 64, 3, 0, 0, 232, 2, 0, 0, 156, 2, 0, 0, 80, 2, 0, 0, 4, 2, 0, 0, 112, 1, 0, 0, 220, 0, 0, 0, 96, 0, 0, 0, 4, 0, 0, 0, 34, 252, 255, 255, 0, 0, 0, 1, 20, 0, 0, 0, 28, 0, 0, 0, 28, 0, 0, 0, 11, 0, 0, 0, 52, 0, 0, 0, 2, 0, 0, 0, 255, 255, 255, 255, 1, 0, 0, 0, 12, 252, 255, 255, 25, 0, 0, 0, 83, 116, 97, 116, 101, 102, 117, 108, 80, 97, 114, 116, 105, 116, 105, 111, 110, 101, 100, 67, 97, 108, 108, 58, 48, 0, 0, 0, 2, 0, 0, 0, 1, 0, 0, 0, 1, 0, 0, 0, 122, 252, 255, 255, 0, 0, 0, 1, 20, 0, 0, 0, 28, 0, 0, 0, 28, 0, 0, 0, 10, 0, 0, 0, 84, 0, 0, 0, 2, 0, 0, 0, 255, 255, 255, 255, 1, 0, 0, 0, 100, 252, 255, 255, 56, 0, 0, 0, 115, 101, 113, 117, 101, 110, 116, 105, 97, 108, 95, 49, 47, 100, 101, 110, 115, 101, 95, 53, 47, 77, 97, 116, 77, 117, 108, 59, 115, 101, 113, 117, 101, 110, 116, 105, 97, 108, 95, 49, 47, 100, 101, 110, 115, 101, 95, 53, 47, 66, 105, 97, 115, 65, 100, 100, 0, 0, 0, 0, 2, 0, 0, 0, 1, 0, 0, 0, 1, 0, 0, 0, 242, 252, 255, 255, 0, 0, 0, 1, 20, 0, 0, 0, 28, 0, 0, 0, 28, 0, 0, 0, 9, 0, 0, 0, 108, 0, 0, 0, 2, 0, 0, 0, 255, 255, 255, 255, 32, 0, 0, 0, 220, 252, 255, 255, 82, 0, 0, 0, 115, 101, 113, 117, 101, 110, 116, 105, 97, 108, 95, 49, 47, 100, 101, 110, 115, 101, 95, 52, 47, 77, 97, 116, 77, 117, 108, 59, 115, 101, 113, 117, 101, 110, 116, 105, 97, 108, 95, 49, 47, 100, 101, 110, 115, 101, 95, 52, 47, 82, 101, 108, 117, 59, 115, 101, 113, 117, 101, 110, 116, 105, 97, 108, 95, 49, 47, 100, 101, 110, 115, 101, 95, 52, 47, 66, 105, 97, 115, 65, 100, 100, 0, 0, 2, 0, 0, 0, 1, 0, 0, 0, 32, 0, 0, 0, 130, 253, 255, 255, 0, 0, 0, 1, 20, 0, 0, 0, 28, 0, 0, 0, 28, 0, 0, 0, 8, 0, 0, 0, 108, 0, 0, 0, 2, 0, 0, 0, 255, 255, 255, 255, 64, 0, 0, 0, 108, 253, 255, 255, 82, 0, 0, 0, 115, 101, 113, 117, 101, 110, 116, 105, 97, 108, 95, 49, 47, 100, 101, 110, 115, 101, 95, 51, 47, 77, 97, 116, 77, 117, 108, 59, 115, 101, 113, 117, 101, 110, 116, 105, 97, 108, 95, 49, 47, 100, 101, 110, 115, 101, 95, 51, 47, 82, 101, 108, 117, 59, 115, 101, 113, 117, 101, 110, 116, 105, 97, 108, 95, 49, 47, 100, 101, 110, 115, 101, 95, 51, 47, 66, 105, 97, 115, 65, 100, 100, 0, 0, 2, 0, 0, 0, 1, 0, 0, 0, 64, 0, 0, 0, 126, 254, 255, 255, 0, 0, 0, 1, 16, 0, 0, 0, 16, 0, 0, 0, 7, 0, 0, 0, 40, 0, 0, 0, 236, 253, 255, 255, 27, 0, 0, 0, 115, 101, 113, 117, 101, 110, 116, 105, 97, 108, 95, 49, 47, 100, 101, 110, 115, 101, 95, 53, 47, 77, 97, 116, 77, 117, 108, 0, 2, 0, 0, 0, 1, 0, 0, 0, 32, 0, 0, 0, 198, 254, 255, 255, 0, 0, 0, 1, 16, 0, 0, 0, 16, 0, 0, 0, 6, 0, 0, 0, 40, 0, 0, 0, 52, 254, 255, 255, 27, 0, 0, 0, 115, 101, 113, 117, 101, 110, 116, 105, 97, 108, 95, 49, 47, 100, 101, 110, 115, 101, 95, 52, 47, 77, 97, 116, 77, 117, 108, 0, 2, 0, 0, 0, 32, 0, 0, 0, 64, 0, 0, 0, 14, 255, 255, 255, 0, 0, 0, 1, 16, 0, 0, 0, 16, 0, 0, 0, 5, 0, 0, 0, 40, 0, 0, 0, 124, 254, 255, 255, 27, 0, 0, 0, 115, 101, 113, 117, 101, 110, 116, 105, 97, 108, 95, 49, 47, 100, 101, 110, 115, 101, 95, 51, 47, 77, 97, 116, 77, 117, 108, 0, 2, 0, 0, 0, 64, 0, 0, 0, 8, 0, 0, 0, 86, 255, 255, 255, 0, 0, 0, 1, 16, 0, 0, 0, 16, 0, 0, 0, 4, 0, 0, 0, 56, 0, 0, 0, 196, 254, 255, 255, 43, 0, 0, 0, 115, 101, 113, 117, 101, 110, 116, 105, 97, 108, 95, 49, 47, 100, 101, 110, 115, 101, 95, 51, 47, 66, 105, 97, 115, 65, 100, 100, 47, 82, 101, 97, 100, 86, 97, 114, 105, 97, 98, 108, 101, 79, 112, 0, 1, 0, 0, 0, 64, 0, 0, 0, 170, 255, 255, 255, 0, 0, 0, 1, 16, 0, 0, 0, 16, 0, 0, 0, 3, 0, 0, 0, 56, 0, 0, 0, 24, 255, 255, 255, 43, 0, 0, 0, 115, 101, 113, 117, 101, 110, 116, 105, 97, 108, 95, 49, 47, 100, 101, 110, 115, 101, 95, 52, 47, 66, 105, 97, 115, 65, 100, 100, 47, 82, 101, 97, 100, 86, 97, 114, 105, 97, 98, 108, 101, 79, 112, 0, 1, 0, 0, 0, 32, 0, 0, 0, 0, 0, 22, 0, 24, 0, 20, 0, 0, 0, 16, 0, 12, 0, 8, 0, 0, 0, 0, 0, 0, 0, 7, 0, 22, 0, 0, 0, 0, 0, 0, 1, 16, 0, 0, 0, 16, 0, 0, 0, 2, 0, 0, 0, 56, 0, 0, 0, 132, 255, 255, 255, 43, 0, 0, 0, 115, 101, 113, 117, 101, 110, 116, 105, 97, 108, 95, 49, 47, 100, 101, 110, 115, 101, 95, 53, 47, 66, 105, 97, 115, 65, 100, 100, 47, 82, 101, 97, 100, 86, 97, 114, 105, 97, 98, 108, 101, 79, 112, 0, 1, 0, 0, 0, 1, 0, 0, 0, 0, 0, 22, 0, 28, 0, 24, 0, 0, 0, 20, 0, 16, 0, 12, 0, 0, 0, 0, 0, 8, 0, 7, 0, 22, 0, 0, 0, 0, 0, 0, 1, 20, 0, 0, 0, 32, 0, 0, 0, 32, 0, 0, 0, 1, 0, 0, 0, 60, 0, 0, 0, 2, 0, 0, 0, 255, 255, 255, 255, 8, 0, 0, 0, 4, 0, 4, 0, 4, 0, 0, 0, 31, 0, 0, 0, 115, 101, 114, 118, 105, 110, 103, 95, 100, 101, 102, 97, 117, 108, 116, 95, 100, 101, 110, 115, 101, 95, 51, 95, 105, 110, 112, 117, 116, 58, 48, 0, 2, 0, 0, 0, 1, 0, 0, 0, 8, 0, 0, 0, 2, 0, 0, 0, 32, 0, 0, 0, 4, 0, 0, 0, 244, 255, 255, 255, 14, 0, 0, 0, 0, 0, 0, 14, 12, 0, 12, 0, 11, 0, 0, 0, 0, 0, 4, 0, 12, 0, 0, 0, 9, 0, 0, 0, 0, 0, 0, 9, };